{
  "version": "1.0",
  "truncation": null,
  "padding": null,
  "added_tokens": [
    {
      "id": 0,
      "content": "<pad>",
      "single_word": false,
      "lstrip": false,
      "rstrip": false,
      "normalized": false,
      "special": true
    },
    {
      "id": 1,
      "content": "[UNK]",
      "single_word": false,
      "lstrip": false,
      "rstrip": false,
      "normalized": false,
      "special": true
    },
    {
      "id": 2,
      "content": "[BOS]",
      "single_word": false,
      "lstrip": false,
      "rstrip": false,
      "normalized": false,
      "special": true
    },
    {
      "id": 3,
      "content": "[EOS]",
      "single_word": false,
      "lstrip": false,
      "rstrip": false,
      "normalized": false,
      "special": true
    }
  ],
  "normalizer": null,
  "pre_tokenizer": {
    "type": "Whitespace"
  },
  "post_processor": null,
  "decoder": null,
  "model": {
    "type": "BPE",
    "dropout": null,
    "unk_token": "[UNK]",
    "continuing_subword_prefix": null,
    "end_of_word_suffix": null,
    "fuse_unk": false,
    "byte_fallback": false,
    "ignore_merges": false,
    "vocab": {
      "<pad>": 0,
      "[UNK]": 1,
      "[BOS]": 2,
      "[EOS]": 3,
      "`": 4,
      "¬": 5,
      "ئ": 6,
      "ا": 7,
      "ب": 8,
      "ت": 9,
      "ج": 10,
      "خ": 11,
      "د": 12,
      "ر": 13,
      "ز": 14,
      "س": 15,
      "ش": 16,
      "غ": 17,
      "ف": 18,
      "ق": 19,
      "ك": 20,
      "ل": 21,
      "م": 22,
      "ن": 23,
      "و": 24,
      "ى": 25,
      "ي": 26,
      "پ": 27,
      "چ": 28,
      "ژ": 29,
      "ک": 30,
      "ڭ": 31,
      "گ": 32,
      "ھ": 33,
      "ۆ": 34,
      "ۇ": 35,
      "ۈ": 36,
      "ۋ": 37,
      "ی": 38,
      "ې": 39,
      "ە": 40,
      "−": 41,
      "ﭘ": 42,
      "ﭙ": 43,
      "ﯩ": 44,
      "ﺎ": 45,
      "ﺗ": 46,
      "ﺯ": 47,
      "ﺰ": 48,
      "ﺸ": 49,
      "ﻕ": 50,
      "ﻗ": 51,
      "ﻛ": 52,
      "ﻟ": 53,
      "ﻠ": 54,
      "ﻤ": 55,
      "ﻧ": 56,
      "ﻪ": 57,
      "ﻰ": 58,
      "ﻳ": 59,
      "ﻴ": 60,
      "نى": 61,
      "لى": 62,
      "دى": 63,
      "تى": 64,
      "ار": 65,
      "ان": 66,
      "ەن": 67,
      "قى": 68,
      "ئا": 69,
      "رى": 70,
      "سى": 71,
      "ەر": 72,
      "نىڭ": 73,
      "بى": 74,
      "كى": 75,
      "ئى": 76,
      "مى": 77,
      "دە": 78,
      "ئۇ": 79,
      "دۇ": 80,
      "اي": 81,
      "ەت": 82,
      "دا": 83,
      "ول": 84,
      "تۇ": 85,
      "چى": 86,
      "شى": 87,
      "يا": 88,
      "مۇ": 89,
      "قا": 90,
      "لا": 91,
      "لار": 92,
      "مە": 93,
      "غان": 94,
      "بول": 95,
      "ئە": 96,
      "غا": 97,
      "زى": 98,
      "ئۆ": 99,
      "تا": 100,
      "سا": 101,
      "ما": 102,
      "دىن": 103,
      "گە": 104,
      "ئو": 105,
      "تە": 106,
      "كۆ": 107,
      "ۋا": 108,
      "بۇ": 109,
      "بىر": 110,
      "لىق": 111,
      "يى": 112,
      "با": 113,
      "كە": 114,
      "ئې": 115,
      "قۇ": 116,
      "لەر": 117,
      "كې": 118,
      "را": 119,
      "بىل": 120,
      "غۇ": 121,
      "مەن": 122,
      "لىرى": 123,
      "قان": 124,
      "كۈ": 125,
      "ھە": 126,
      "گەن": 127,
      "رۇ": 128,
      "تو": 129,
      "لە": 130,
      "قو": 131,
      "يې": 132,
      "شۇ": 133,
      "پى": 134,
      "گى": 135,
      "ەك": 136,
      "ۈر": 137,
      "بىلەن": 138,
      "لىك": 139,
      "قىلى": 140,
      "لدى": 141,
      "كەن": 142,
      "چە": 143,
      "تې": 144,
      "نا": 145,
      "سە": 146,
      "غى": 147,
      "پتۇ": 148,
      "ۋە": 149,
      "دې": 150,
      "بار": 151,
      "ۈن": 152,
      "مىز": 153,
      "بو": 154,
      "بې": 155,
      "يە": 156,
      "سىز": 157,
      "ئىش": 158,
      "قار": 159,
      "ڭى": 160,
      "داق": 161,
      "تتى": 162,
      "سۇ": 163,
      "لۇ": 164,
      "يۇ": 165,
      "ماي": 166,
      "ئۈ": 167,
      "خى": 168,
      "پا": 169,
      "ۈش": 170,
      "ھا": 171,
      "دىغان": 172,
      "ۈپ": 173,
      "دەم": 174,
      "شا": 175,
      "قىل": 176,
      "كۆر": 177,
      "نې": 178,
      "يو": 179,
      "مان": 180,
      "بولۇ": 181,
      "دىكى": 182,
      "لىدۇ": 183,
      "كەت": 184,
      "بە": 185,
      "ئۇنىڭ": 186,
      "مې": 187,
      "باش": 188,
      "چا": 189,
      "جى": 190,
      "لىنى": 191,
      "گۈ": 192,
      "رە": 193,
      "ئار": 194,
      "خشى": 195,
      "نە": 196,
      "ھەر": 197,
      "تۇر": 198,
      "ئادەم": 199,
      "ڭىز": 200,
      "تىن": 201,
      "كا": 202,
      "دەك": 203,
      "ئال": 204,
      "مەس": 205,
      "نۇ": 206,
      "ايى": 207,
      "مەي": 208,
      "قە": 209,
      "لىقى": 210,
      "ھې": 211,
      "لىپ": 212,
      "ياخشى": 213,
      "لاپ": 214,
      "نداق": 215,
      "تىپ": 216,
      "سەن": 217,
      "ئۆز": 218,
      "ھى": 219,
      "ۈم": 220,
      "زا": 221,
      "سۆ": 222,
      "قې": 223,
      "دەپ": 224,
      "لارنىڭ": 225,
      "ھەم": 226,
      "يەر": 227,
      "تار": 228,
      "شقا": 229,
      "ئۆزى": 230,
      "ئىدى": 231,
      "سې": 232,
      "ۈك": 233,
      "بولۇپ": 234,
      "قال": 235,
      "ۋى": 236,
      "يەت": 237,
      "بىز": 238,
      "كەل": 239,
      "ئۈچ": 240,
      "سو": 241,
      "خا": 242,
      "ككى": 243,
      "پۇ": 244,
      "پە": 245,
      "لارنى": 246,
      "چىقى": 247,
      "چو": 248,
      "كىشى": 249,
      "ئىككى": 250,
      "تۇرۇ": 251,
      "تەر": 252,
      "قاي": 253,
      "ئاي": 254,
      "ماق": 255,
      "دەر": 256,
      "بېرى": 257,
      "جا": 258,
      "يوق": 259,
      "يۈ": 260,
      "تۈ": 261,
      "خۇ": 262,
      "لان": 263,
      "بولسا": 264,
      "لىشى": 265,
      "چۈش": 266,
      "ئوقۇ": 267,
      "لۇق": 268,
      "كۈن": 269,
      "تىم": 270,
      "لىم": 271,
      "قارا": 272,
      "تقان": 273,
      "تۆ": 274,
      "ئوي": 275,
      "لاي": 276,
      "يىن": 277,
      "ئەت": 278,
      "ەنە": 279,
      "دېگەن": 280,
      "غۇر": 281,
      "سىنى": 282,
      "بەر": 283,
      "لې": 284,
      "نېمە": 285,
      "كىن": 286,
      "قانداق": 287,
      "بولىدۇ": 288,
      "تۈر": 289,
      "مەت": 290,
      "رەك": 291,
      "ئۈچۈن": 292,
      "لاش": 293,
      "زۇ": 294,
      "ئىن": 295,
      "ماس": 296,
      "دو": 297,
      "ەل": 298,
      "مەك": 299,
      "ئەمەس": 300,
      "لەرنى": 301,
      "سان": 302,
      "يال": 303,
      "يەنە": 304,
      "لىكى": 305,
      "كۆپ": 306,
      "يول": 307,
      "سۆز": 308,
      "ست": 309,
      "لىدى": 310,
      "ماڭ": 311,
      "يار": 312,
      "ۋې": 313,
      "ئۇلار": 314,
      "ئۇي": 315,
      "لەي": 316,
      "ۋەت": 317,
      "بولغان": 318,
      "شە": 319,
      "چىق": 320,
      "ئەم": 321,
      "بالى": 322,
      "بەك": 323,
      "رو": 324,
      "تىدۇ": 325,
      "ئان": 326,
      "راق": 327,
      "شۇنداق": 328,
      "جە": 329,
      "كېيىن": 330,
      "سۇن": 331,
      "قىز": 332,
      "ئالدى": 333,
      "ئۆت": 334,
      "خو": 335,
      "گەپ": 336,
      "ستى": 337,
      "دۇر": 338,
      "لەپ": 339,
      "قىلىپ": 340,
      "ارا": 341,
      "لىرىنى": 342,
      "شىنى": 343,
      "قوي": 344,
      "لەت": 345,
      "ئىچى": 346,
      "مىدى": 347,
      "ياش": 348,
      "كۆز": 349,
      "مايدۇ": 350,
      "چوڭ": 351,
      "ئۆي": 352,
      "چۇ": 353,
      "ھاي": 354,
      "قالدى": 355,
      "قارى": 356,
      "رۇن": 357,
      "ئۇيغۇر": 358,
      "ئەر": 359,
      "لۈك": 360,
      "قىزى": 361,
      "نېمى": 362,
      "كو": 363,
      "ئەڭ": 364,
      "منى": 365,
      "رىپ": 366,
      "كېرەك": 367,
      "لغان": 368,
      "كەتتى": 369,
      "لارغا": 370,
      "قەت": 371,
      "راي": 372,
      "ئۇنى": 373,
      "تەك": 374,
      "شنى": 375,
      "ئاڭ": 376,
      "كىم": 377,
      "ۋاتقان": 378,
      "ئىكەن": 379,
      "دۇن": 380,
      "ئەس": 381,
      "ساڭ": 382,
      "بىرى": 383,
      "ساق": 384,
      "چې": 385,
      "مىسى": 386,
      "قويۇ": 387,
      "كۆڭ": 388,
      "ارى": 389,
      "ئىس": 390,
      "باي": 391,
      "مىغان": 392,
      "تۇرۇپ": 393,
      "ۋۇ": 394,
      "كېتى": 395,
      "كىر": 396,
      "ۈل": 397,
      "تۇن": 398,
      "تەپ": 399,
      "ئۆل": 400,
      "سىم": 401,
      "لەن": 402,
      "قتى": 403,
      "ئېغى": 404,
      "لەرنىڭ": 405,
      "قول": 406,
      "توغ": 407,
      "بالا": 408,
      "دۇنيا": 409,
      "گەر": 410,
      "زىر": 411,
      "خىل": 412,
      "لىنىپ": 413,
      "تىكى": 414,
      "يىل": 415,
      "بولدى": 416,
      "يېزى": 417,
      "ددى": 418,
      "ئوخ": 419,
      "چاق": 420,
      "دۇق": 421,
      "ۈڭ": 422,
      "دىم": 423,
      "تۇرى": 424,
      "غىنى": 425,
      "لىش": 426,
      "ھېچ": 427,
      "ئور": 428,
      "جان": 429,
      "تىل": 430,
      "تاش": 431,
      "ھازىر": 432,
      "گۈن": 433,
      "تىنى": 434,
      "كەلدى": 435,
      "گىنى": 436,
      "گۈل": 437,
      "يان": 438,
      "قىرى": 439,
      "كۈل": 440,
      "كىچى": 441,
      "لەش": 442,
      "قاراپ": 443,
      "قىلا": 444,
      "نۇر": 445,
      "يۈر": 446,
      "ئارى": 447,
      "غۇچى": 448,
      "تېخى": 449,
      "قىت": 450,
      "ئانا": 451,
      "ھايا": 452,
      "مال": 453,
      "ڭلار": 454,
      "تەڭ": 455,
      "نچى": 456,
      "تاپ": 457,
      "لىقىنى": 458,
      "تىش": 459,
      "مىنى": 460,
      "داش": 461,
      "ۋال": 462,
      "مېنىڭ": 463,
      "ۈگۈن": 464,
      "رىش": 465,
      "ئوت": 466,
      "ۋاقىت": 467,
      "ماڭا": 468,
      "ھەت": 469,
      "ەپ": 470,
      "دىكەن": 471,
      "ئىل": 472,
      "يېڭى": 473,
      "پۈ": 474,
      "لىغان": 475,
      "ياز": 476,
      "ئېي": 477,
      "ئەل": 478,
      "قۇم": 479,
      "ئاچ": 480,
      "قور": 481,
      "تال": 482,
      "ئول": 483,
      "دان": 484,
      "ور": 485,
      "كۈچ": 486,
      "خانى": 487,
      "نەر": 488,
      "دىسى": 489,
      "غە": 490,
      "رۇق": 491,
      "ئات": 492,
      "سىر": 493,
      "سىمۇ": 494,
      "كەلگەن": 495,
      "منىڭ": 496,
      "شىپ": 497,
      "راپ": 498,
      "يېقى": 499,
      "تور": 500,
      "بەل": 501,
      "جۇ": 502,
      "يامان": 503,
      "چاغ": 504,
      "سۈ": 505,
      "كۈنى": 506,
      "گۈز": 507,
      "مەكتەپ": 508,
      "گې": 509,
      "ناھ": 510,
      "بۆ": 511,
      "ئىز": 512,
      "تۇق": 513,
      "قىلغان": 514,
      "يۈز": 515,
      "سەت": 516,
      "لاق": 517,
      "باغ": 518,
      "ھەرى": 519,
      "يېرى": 520,
      "ايىتى": 521,
      "قېتىم": 522,
      "خە": 523,
      "گا": 524,
      "ئېلىپ": 525,
      "قىلىش": 526,
      "بۈگۈن": 527,
      "تۈن": 528,
      "سىيە": 529,
      "باشقى": 530,
      "لەرگە": 531,
      "يەردە": 532,
      "پەر": 533,
      "ئۇچ": 534,
      "ياق": 535,
      "ئارقى": 536,
      "ئاق": 537,
      "ئانى": 538,
      "لام": 539,
      "ئاتا": 540,
      "ئاخى": 541,
      "ئىشى": 542,
      "بولا": 543,
      "پارا": 544,
      "ۋاي": 545,
      "سام": 546,
      "تېز": 547,
      "ڭنى": 548,
      "قىنى": 549,
      "قىلدى": 550,
      "ھال": 551,
      "قالغان": 552,
      "كۇ": 553,
      "ئالى": 554,
      "ئوغ": 555,
      "باق": 556,
      "ھۇ": 557,
      "غۇن": 558,
      "كۈز": 559,
      "قىلىدۇ": 560,
      "لېكىن": 561,
      "كىچىك": 562,
      "ۋان": 563,
      "تۇرا": 564,
      "بەزى": 565,
      "چىراي": 566,
      "چۆ": 567,
      "مۇھى": 568,
      "شال": 569,
      "ئەمدى": 570,
      "مو": 571,
      "تىلى": 572,
      "ھار": 573,
      "دۈر": 574,
      "ھەقى": 575,
      "مەيدۇ": 576,
      "پو": 577,
      "چان": 578,
      "چەك": 579,
      "ئاۋا": 580,
      "تاغ": 581,
      "غۇل": 582,
      "ران": 583,
      "ئاز": 584,
      "شاش": 585,
      "كۆرۈپ": 586,
      "لىشىپ": 587,
      "بىلىم": 588,
      "مىڭ": 589,
      "مۇشۇ": 590,
      "باشقا": 591,
      "ققى": 592,
      "ھۆ": 593,
      "رىنى": 594,
      "دەي": 595,
      "يات": 596,
      "قۇر": 597,
      "ئاس": 598,
      "سىڭىز": 599,
      "قات": 600,
      "بەت": 601,
      "فى": 602,
      "كار": 603,
      "ئۇلارنىڭ": 604,
      "كەچ": 605,
      "لىرىنىڭ": 606,
      "كەتكەن": 607,
      "مغا": 608,
      "پاي": 609,
      "ياكى": 610,
      "قاتتى": 611,
      "ئەتى": 612,
      "ئون": 613,
      "ئېتى": 614,
      "ئېچى": 615,
      "قېرى": 616,
      "ناھايىتى": 617,
      "ئىم": 618,
      "بولسۇن": 619,
      "يىتى": 620,
      "ۋەر": 621,
      "سىل": 622,
      "سەل": 623,
      "مىزنىڭ": 624,
      "ئەمما": 625,
      "پې": 626,
      "كېلىپ": 627,
      "ھەممە": 628,
      "تەرەپ": 629,
      "لىكىنى": 630,
      "سىدا": 631,
      "كىتا": 632,
      "ئاپ": 633,
      "كېلى": 634,
      "رەت": 635,
      "چىقىپ": 636,
      "سەك": 637,
      "ھو": 638,
      "ئاش": 639,
      "سىنىڭ": 640,
      "ۋاتىدۇ": 641,
      "نەچ": 642,
      "لايدۇ": 643,
      "ختى": 644,
      "ايدۇ": 645,
      "ھەي": 646,
      "ئۇنىڭغا": 647,
      "ينى": 648,
      "رىدۇ": 649,
      "ياسى": 650,
      "زىنى": 651,
      "خۇشال": 652,
      "چىرايلىق": 653,
      "خەت": 654,
      "كىيى": 655,
      "مىگەن": 656,
      "لەم": 657,
      "توغرا": 658,
      "چۈ": 659,
      "دۇم": 660,
      "خې": 661,
      "ۋاقتى": 662,
      "كىشىلەر": 663,
      "كىتاب": 664,
      "تقۇ": 665,
      "بىلى": 666,
      "غاچ": 667,
      "ئورۇن": 668,
      "گۈزەل": 669,
      "چىلىك": 670,
      "مېھ": 671,
      "پەي": 672,
      "اق": 673,
      "رې": 674,
      "تىمەن": 675,
      "بېشى": 676,
      "پادى": 677,
      "كۆرۈن": 678,
      "دوست": 679,
      "ئىچىدە": 680,
      "يېقىن": 681,
      "دار": 682,
      "ئاسا": 683,
      "غاندا": 684,
      "يىگى": 685,
      "مېنى": 686,
      "ئىنسان": 687,
      "نەچچە": 688,
      "گۈر": 689,
      "گىز": 690,
      "لىنىدۇ": 691,
      "پۇل": 692,
      "نۇرغۇن": 693,
      "ئالا": 694,
      "لاردا": 695,
      "ئۈستى": 696,
      "ئوخشاش": 697,
      "تول": 698,
      "گۇ": 699,
      "لىسى": 700,
      "ئۇنداق": 701,
      "لىققا": 702,
      "مىل": 703,
      "كۈچى": 704,
      "ھېس": 705,
      "مەر": 706,
      "ئىشلى": 707,
      "تەت": 708,
      "قىس": 709,
      "سىپ": 710,
      "يىغى": 711,
      "سەڭ": 712,
      "قاتتىق": 713,
      "ملىق": 714,
      "ئايال": 715,
      "سىلەر": 716,
      "تۇپ": 717,
      "يام": 718,
      "بۇنىڭ": 719,
      "ئېرى": 720,
      "يۇقىرى": 721,
      "قاتار": 722,
      "يېنى": 723,
      "غىلى": 724,
      "مىزنى": 725,
      "ئۈز": 726,
      "بىزنىڭ": 727,
      "مىسا": 728,
      "ئۇچۇ": 729,
      "قاپ": 730,
      "بولمايدۇ": 731,
      "يىراق": 732,
      "ئۆزىنى": 733,
      "كۆڭۈل": 734,
      "تىرى": 735,
      "ئادە": 736,
      "لاردىن": 737,
      "مەسى": 738,
      "شۇنىڭ": 739,
      "ھەرىكەت": 740,
      "ۋەن": 741,
      "بېرىپ": 742,
      "مۇھىم": 743,
      "مۇم": 744,
      "ئەقىل": 745,
      "يىغ": 746,
      "گىلى": 747,
      "نېمىشقا": 748,
      "سۈر": 749,
      "كىنى": 750,
      "چىلىق": 751,
      "ھەممى": 752,
      "ئۇزۇ": 753,
      "دادا": 754,
      "ئەمە": 755,
      "كۆتۈر": 756,
      "پۇر": 757,
      "تايى": 758,
      "ون": 759,
      "ئۆگىنى": 760,
      "تەي": 761,
      "بۇرۇن": 762,
      "سۇل": 763,
      "ڭىزنى": 764,
      "ھېسا": 765,
      "ئايرى": 766,
      "شەھەر": 767,
      "پۈتۈن": 768,
      "ئۇزۇن": 769,
      "ئۆس": 770,
      "لۇغ": 771,
      "بەش": 772,
      "ئارا": 773,
      "خوتۇن": 774,
      "شەك": 775,
      "نو": 776,
      "ئاغ": 777,
      "ئەخ": 778,
      "ئارقىلىق": 779,
      "خان": 780,
      "شقان": 781,
      "مۈر": 782,
      "نىدى": 783,
      "دەپتۇ": 784,
      "ئەگەر": 785,
      "توي": 786,
      "قولى": 787,
      "تتىن": 788,
      "تارى": 789,
      "لەيدۇ": 790,
      "خت": 791,
      "خەل": 792,
      "ەخ": 793,
      "ئەھ": 794,
      "تونۇ": 795,
      "ئۆزىنىڭ": 796,
      "ھەل": 797,
      "شۇڭ": 798,
      "تېپى": 799,
      "باشلىدى": 800,
      "رەڭ": 801,
      "تۈز": 802,
      "بۇنداق": 803,
      "رۇپ": 804,
      "پات": 805,
      "يەتتە": 806,
      "تېخىمۇ": 807,
      "مۇمكىن": 808,
      "ساي": 809,
      "مدۇ": 810,
      "پار": 811,
      "مۇشۇنداق": 812,
      "سەم": 813,
      "تۇرغان": 814,
      "ئېغىر": 815,
      "لماي": 816,
      "پەن": 817,
      "سىدىن": 818,
      "قۇن": 819,
      "قانچە": 820,
      "يامغۇر": 821,
      "نىنى": 822,
      "سىغا": 823,
      "مەش": 824,
      "مەڭ": 825,
      "كەم": 826,
      "مانا": 827,
      "دەرەخ": 828,
      "تۆت": 829,
      "ئەن": 830,
      "چار": 831,
      "ئائى": 832,
      "ئىگە": 833,
      "ئۇلۇغ": 834,
      "تېرى": 835,
      "دېدى": 836,
      "بويى": 837,
      "يەسى": 838,
      "يەرگە": 839,
      "چاغدا": 840,
      "ھېساب": 841,
      "تلىق": 842,
      "دۈش": 843,
      "نچە": 844,
      "دىر": 845,
      "ئاتى": 846,
      "تەن": 847,
      "شې": 848,
      "شتى": 849,
      "ۋاب": 850,
      "بۇنى": 851,
      "سەۋە": 852,
      "ئىشنى": 853,
      "سۆي": 854,
      "قايسى": 855,
      "تۇراتتى": 856,
      "ئۈن": 857,
      "دۆ": 858,
      "زە": 859,
      "مىن": 860,
      "داۋا": 861,
      "بوپتۇ": 862,
      "بولۇشى": 863,
      "لىنىش": 864,
      "ئۆزۈم": 865,
      "پەقەت": 866,
      "ماقچى": 867,
      "يارى": 868,
      "يېرىم": 869,
      "سىق": 870,
      "ئىي": 871,
      "ئۇس": 872,
      "زىم": 873,
      "ددىي": 874,
      "ياغ": 875,
      "ۋاق": 876,
      "تۇرمۇ": 877,
      "لېك": 878,
      "ھەقىقەت": 879,
      "قەر": 880,
      "گۆ": 881,
      "قىي": 882,
      "ئاپا": 883,
      "تۇز": 884,
      "لاھ": 885,
      "گەندە": 886,
      "توپ": 887,
      "ئۈمى": 888,
      "ھەممىسى": 889,
      "شەن": 890,
      "ھان": 891,
      "قىر": 892,
      "كۆزى": 893,
      "قۇياش": 894,
      "يېشى": 895,
      "خىز": 896,
      "ئۈمىد": 897,
      "تان": 898,
      "غاي": 899,
      "مۇنا": 900,
      "ئۆر": 901,
      "يەنى": 902,
      "سېرى": 903,
      "چۈشەن": 904,
      "قويۇپ": 905,
      "قاتارلىق": 906,
      "كان": 907,
      "لىمۇ": 908,
      "قىم": 909,
      "ئاشۇ": 910,
      "كېچى": 911,
      "سورى": 912,
      "قايتىپ": 913,
      "لىدىكەن": 914,
      "بالىلار": 915,
      "ئاخىر": 916,
      "زان": 917,
      "لىدىغان": 918,
      "ئۇن": 919,
      "كېلىدۇ": 920,
      "لۇپ": 921,
      "ئادەملەر": 922,
      "ئۆزۈڭ": 923,
      "تايىن": 924,
      "تىمىز": 925,
      "تاق": 926,
      "بۇل": 927,
      "تېلې": 928,
      "ھاۋا": 929,
      "رەپ": 930,
      "رەھ": 931,
      "ئاللاھ": 932,
      "ئۆزگى": 933,
      "زار": 934,
      "يۆ": 935,
      "پتى": 936,
      "دىنى": 937,
      "دىلا": 938,
      "ئىچ": 939,
      "بولماس": 940,
      "تەبى": 941,
      "ئادەمنىڭ": 942,
      "سېنىڭ": 943,
      "ئوقۇغۇچى": 944,
      "زې": 945,
      "يدۇ": 946,
      "ڭغۇ": 947,
      "نىيە": 948,
      "كىرىپ": 949,
      "ئىر": 950,
      "مىي": 951,
      "ئوغۇل": 952,
      "ۋالدى": 953,
      "لەردە": 954,
      "تېر": 955,
      "ماقتا": 956,
      "لانغان": 957,
      "چىققان": 958,
      "مىدىم": 959,
      "ھايۋان": 960,
      "جايى": 961,
      "مۈش": 962,
      "يلى": 963,
      "تىر": 964,
      "زىرى": 965,
      "ئۆيى": 966,
      "تاماق": 967,
      "تەس": 968,
      "لىرىدىن": 969,
      "قوغ": 970,
      "نەتى": 971,
      "چوقۇم": 972,
      "جاۋاب": 973,
      "شۇڭا": 974,
      "جې": 975,
      "جرى": 976,
      "دىق": 977,
      "ئۇخ": 978,
      "بولسىمۇ": 979,
      "غۇچە": 980,
      "نۇرى": 981,
      "ۈپتۇ": 982,
      "كىل": 983,
      "ئىت": 984,
      "سال": 985,
      "يۈگۈر": 986,
      "ئۆتكۈز": 987,
      "تۇرىدۇ": 988,
      "ختا": 989,
      "ئەجە": 990,
      "بىراق": 991,
      "قۇرۇ": 992,
      "ئورنى": 993,
      "ھالدا": 994,
      "ئادەت": 995,
      "زەر": 996,
      "شەر": 997,
      "رىپى": 998,
      "ساپ": 999
    },
    "merges": [
      [
        "ن",
        "ى"
      ],
      [
        "ل",
        "ى"
      ],
      [
        "د",
        "ى"
      ],
      [
        "ت",
        "ى"
      ],
      [
        "ا",
        "ر"
      ],
      [
        "ا",
        "ن"
      ],
      [
        "ە",
        "ن"
      ],
      [
        "ق",
        "ى"
      ],
      [
        "ئ",
        "ا"
      ],
      [
        "ر",
        "ى"
      ],
      [
        "س",
        "ى"
      ],
      [
        "ە",
        "ر"
      ],
      [
        "نى",
        "ڭ"
      ],
      [
        "ب",
        "ى"
      ],
      [
        "ك",
        "ى"
      ],
      [
        "ئ",
        "ى"
      ],
      [
        "م",
        "ى"
      ],
      [
        "د",
        "ە"
      ],
      [
        "ئ",
        "ۇ"
      ],
      [
        "د",
        "ۇ"
      ],
      [
        "ا",
        "ي"
      ],
      [
        "ە",
        "ت"
      ],
      [
        "د",
        "ا"
      ],
      [
        "و",
        "ل"
      ],
      [
        "ت",
        "ۇ"
      ],
      [
        "چ",
        "ى"
      ],
      [
        "ش",
        "ى"
      ],
      [
        "ي",
        "ا"
      ],
      [
        "م",
        "ۇ"
      ],
      [
        "ق",
        "ا"
      ],
      [
        "ل",
        "ا"
      ],
      [
        "ل",
        "ار"
      ],
      [
        "م",
        "ە"
      ],
      [
        "غ",
        "ان"
      ],
      [
        "ب",
        "ول"
      ],
      [
        "ئ",
        "ە"
      ],
      [
        "غ",
        "ا"
      ],
      [
        "ز",
        "ى"
      ],
      [
        "ئ",
        "ۆ"
      ],
      [
        "ت",
        "ا"
      ],
      [
        "س",
        "ا"
      ],
      [
        "م",
        "ا"
      ],
      [
        "دى",
        "ن"
      ],
      [
        "گ",
        "ە"
      ],
      [
        "ئ",
        "و"
      ],
      [
        "ت",
        "ە"
      ],
      [
        "ك",
        "ۆ"
      ],
      [
        "ۋ",
        "ا"
      ],
      [
        "ب",
        "ۇ"
      ],
      [
        "بى",
        "ر"
      ],
      [
        "لى",
        "ق"
      ],
      [
        "ي",
        "ى"
      ],
      [
        "ب",
        "ا"
      ],
      [
        "ك",
        "ە"
      ],
      [
        "ئ",
        "ې"
      ],
      [
        "ق",
        "ۇ"
      ],
      [
        "ل",
        "ەر"
      ],
      [
        "ك",
        "ې"
      ],
      [
        "ر",
        "ا"
      ],
      [
        "بى",
        "ل"
      ],
      [
        "غ",
        "ۇ"
      ],
      [
        "م",
        "ەن"
      ],
      [
        "لى",
        "رى"
      ],
      [
        "ق",
        "ان"
      ],
      [
        "ك",
        "ۈ"
      ],
      [
        "ھ",
        "ە"
      ],
      [
        "گ",
        "ەن"
      ],
      [
        "ر",
        "ۇ"
      ],
      [
        "ت",
        "و"
      ],
      [
        "ل",
        "ە"
      ],
      [
        "ق",
        "و"
      ],
      [
        "ي",
        "ې"
      ],
      [
        "ش",
        "ۇ"
      ],
      [
        "پ",
        "ى"
      ],
      [
        "گ",
        "ى"
      ],
      [
        "ە",
        "ك"
      ],
      [
        "ۈ",
        "ر"
      ],
      [
        "بىل",
        "ەن"
      ],
      [
        "لى",
        "ك"
      ],
      [
        "قى",
        "لى"
      ],
      [
        "ل",
        "دى"
      ],
      [
        "ك",
        "ەن"
      ],
      [
        "چ",
        "ە"
      ],
      [
        "ت",
        "ې"
      ],
      [
        "ن",
        "ا"
      ],
      [
        "س",
        "ە"
      ],
      [
        "غ",
        "ى"
      ],
      [
        "پ",
        "تۇ"
      ],
      [
        "ۋ",
        "ە"
      ],
      [
        "د",
        "ې"
      ],
      [
        "ب",
        "ار"
      ],
      [
        "ۈ",
        "ن"
      ],
      [
        "مى",
        "ز"
      ],
      [
        "ب",
        "و"
      ],
      [
        "ب",
        "ې"
      ],
      [
        "ي",
        "ە"
      ],
      [
        "سى",
        "ز"
      ],
      [
        "ئى",
        "ش"
      ],
      [
        "ق",
        "ار"
      ],
      [
        "ڭ",
        "ى"
      ],
      [
        "دا",
        "ق"
      ],
      [
        "ت",
        "تى"
      ],
      [
        "س",
        "ۇ"
      ],
      [
        "ل",
        "ۇ"
      ],
      [
        "ي",
        "ۇ"
      ],
      [
        "م",
        "اي"
      ],
      [
        "ئ",
        "ۈ"
      ],
      [
        "خ",
        "ى"
      ],
      [
        "پ",
        "ا"
      ],
      [
        "ۈ",
        "ش"
      ],
      [
        "ھ",
        "ا"
      ],
      [
        "دى",
        "غان"
      ],
      [
        "ۈ",
        "پ"
      ],
      [
        "دە",
        "م"
      ],
      [
        "ش",
        "ا"
      ],
      [
        "قى",
        "ل"
      ],
      [
        "كۆ",
        "ر"
      ],
      [
        "ن",
        "ې"
      ],
      [
        "ي",
        "و"
      ],
      [
        "م",
        "ان"
      ],
      [
        "بول",
        "ۇ"
      ],
      [
        "دى",
        "كى"
      ],
      [
        "لى",
        "دۇ"
      ],
      [
        "ك",
        "ەت"
      ],
      [
        "ب",
        "ە"
      ],
      [
        "ئۇ",
        "نىڭ"
      ],
      [
        "م",
        "ې"
      ],
      [
        "با",
        "ش"
      ],
      [
        "چ",
        "ا"
      ],
      [
        "ج",
        "ى"
      ],
      [
        "لى",
        "نى"
      ],
      [
        "گ",
        "ۈ"
      ],
      [
        "ر",
        "ە"
      ],
      [
        "ئ",
        "ار"
      ],
      [
        "خ",
        "شى"
      ],
      [
        "ن",
        "ە"
      ],
      [
        "ھ",
        "ەر"
      ],
      [
        "تۇ",
        "ر"
      ],
      [
        "ئا",
        "دەم"
      ],
      [
        "ڭى",
        "ز"
      ],
      [
        "تى",
        "ن"
      ],
      [
        "ك",
        "ا"
      ],
      [
        "دە",
        "ك"
      ],
      [
        "ئا",
        "ل"
      ],
      [
        "مە",
        "س"
      ],
      [
        "ن",
        "ۇ"
      ],
      [
        "اي",
        "ى"
      ],
      [
        "مە",
        "ي"
      ],
      [
        "ق",
        "ە"
      ],
      [
        "لى",
        "قى"
      ],
      [
        "ھ",
        "ې"
      ],
      [
        "لى",
        "پ"
      ],
      [
        "يا",
        "خشى"
      ],
      [
        "لا",
        "پ"
      ],
      [
        "ن",
        "داق"
      ],
      [
        "تى",
        "پ"
      ],
      [
        "س",
        "ەن"
      ],
      [
        "ئۆ",
        "ز"
      ],
      [
        "ھ",
        "ى"
      ],
      [
        "ۈ",
        "م"
      ],
      [
        "ز",
        "ا"
      ],
      [
        "س",
        "ۆ"
      ],
      [
        "ق",
        "ې"
      ],
      [
        "دە",
        "پ"
      ],
      [
        "لار",
        "نىڭ"
      ],
      [
        "ھە",
        "م"
      ],
      [
        "ي",
        "ەر"
      ],
      [
        "ت",
        "ار"
      ],
      [
        "ش",
        "قا"
      ],
      [
        "ئۆ",
        "زى"
      ],
      [
        "ئى",
        "دى"
      ],
      [
        "س",
        "ې"
      ],
      [
        "ۈ",
        "ك"
      ],
      [
        "بولۇ",
        "پ"
      ],
      [
        "قا",
        "ل"
      ],
      [
        "ۋ",
        "ى"
      ],
      [
        "ي",
        "ەت"
      ],
      [
        "بى",
        "ز"
      ],
      [
        "كە",
        "ل"
      ],
      [
        "ئۈ",
        "چ"
      ],
      [
        "س",
        "و"
      ],
      [
        "خ",
        "ا"
      ],
      [
        "ك",
        "كى"
      ],
      [
        "پ",
        "ۇ"
      ],
      [
        "پ",
        "ە"
      ],
      [
        "لار",
        "نى"
      ],
      [
        "چى",
        "قى"
      ],
      [
        "چ",
        "و"
      ],
      [
        "كى",
        "شى"
      ],
      [
        "ئى",
        "ككى"
      ],
      [
        "تۇ",
        "رۇ"
      ],
      [
        "ت",
        "ەر"
      ],
      [
        "ق",
        "اي"
      ],
      [
        "ئا",
        "ي"
      ],
      [
        "ما",
        "ق"
      ],
      [
        "د",
        "ەر"
      ],
      [
        "بې",
        "رى"
      ],
      [
        "ج",
        "ا"
      ],
      [
        "يو",
        "ق"
      ],
      [
        "ي",
        "ۈ"
      ],
      [
        "ت",
        "ۈ"
      ],
      [
        "خ",
        "ۇ"
      ],
      [
        "ل",
        "ان"
      ],
      [
        "بول",
        "سا"
      ],
      [
        "لى",
        "شى"
      ],
      [
        "چ",
        "ۈش"
      ],
      [
        "ئو",
        "قۇ"
      ],
      [
        "لۇ",
        "ق"
      ],
      [
        "كۈ",
        "ن"
      ],
      [
        "تى",
        "م"
      ],
      [
        "لى",
        "م"
      ],
      [
        "قار",
        "ا"
      ],
      [
        "ت",
        "قان"
      ],
      [
        "ت",
        "ۆ"
      ],
      [
        "ئو",
        "ي"
      ],
      [
        "ل",
        "اي"
      ],
      [
        "يى",
        "ن"
      ],
      [
        "ئ",
        "ەت"
      ],
      [
        "ەن",
        "ە"
      ],
      [
        "دې",
        "گەن"
      ],
      [
        "غۇ",
        "ر"
      ],
      [
        "سى",
        "نى"
      ],
      [
        "ب",
        "ەر"
      ],
      [
        "ل",
        "ې"
      ],
      [
        "نې",
        "مە"
      ],
      [
        "كى",
        "ن"
      ],
      [
        "قان",
        "داق"
      ],
      [
        "بو",
        "لىدۇ"
      ],
      [
        "ت",
        "ۈر"
      ],
      [
        "م",
        "ەت"
      ],
      [
        "ر",
        "ەك"
      ],
      [
        "ئۈچ",
        "ۈن"
      ],
      [
        "لا",
        "ش"
      ],
      [
        "ز",
        "ۇ"
      ],
      [
        "ئى",
        "ن"
      ],
      [
        "ما",
        "س"
      ],
      [
        "د",
        "و"
      ],
      [
        "ە",
        "ل"
      ],
      [
        "مە",
        "ك"
      ],
      [
        "ئە",
        "مەس"
      ],
      [
        "لەر",
        "نى"
      ],
      [
        "س",
        "ان"
      ],
      [
        "يا",
        "ل"
      ],
      [
        "ي",
        "ەنە"
      ],
      [
        "لى",
        "كى"
      ],
      [
        "كۆ",
        "پ"
      ],
      [
        "ي",
        "ول"
      ],
      [
        "سۆ",
        "ز"
      ],
      [
        "س",
        "ت"
      ],
      [
        "لى",
        "دى"
      ],
      [
        "ما",
        "ڭ"
      ],
      [
        "ي",
        "ار"
      ],
      [
        "ۋ",
        "ې"
      ],
      [
        "ئۇ",
        "لار"
      ],
      [
        "ئۇ",
        "ي"
      ],
      [
        "لە",
        "ي"
      ],
      [
        "ۋ",
        "ەت"
      ],
      [
        "بول",
        "غان"
      ],
      [
        "ش",
        "ە"
      ],
      [
        "چى",
        "ق"
      ],
      [
        "ئە",
        "م"
      ],
      [
        "با",
        "لى"
      ],
      [
        "ب",
        "ەك"
      ],
      [
        "ر",
        "و"
      ],
      [
        "تى",
        "دۇ"
      ],
      [
        "ئ",
        "ان"
      ],
      [
        "را",
        "ق"
      ],
      [
        "شۇ",
        "نداق"
      ],
      [
        "ج",
        "ە"
      ],
      [
        "كې",
        "يىن"
      ],
      [
        "سۇ",
        "ن"
      ],
      [
        "قى",
        "ز"
      ],
      [
        "ئا",
        "لدى"
      ],
      [
        "ئۆ",
        "ت"
      ],
      [
        "خ",
        "و"
      ],
      [
        "گە",
        "پ"
      ],
      [
        "س",
        "تى"
      ],
      [
        "دۇ",
        "ر"
      ],
      [
        "لە",
        "پ"
      ],
      [
        "قىلى",
        "پ"
      ],
      [
        "ار",
        "ا"
      ],
      [
        "لىرى",
        "نى"
      ],
      [
        "شى",
        "نى"
      ],
      [
        "قو",
        "ي"
      ],
      [
        "ل",
        "ەت"
      ],
      [
        "ئى",
        "چى"
      ],
      [
        "مى",
        "دى"
      ],
      [
        "يا",
        "ش"
      ],
      [
        "كۆ",
        "ز"
      ],
      [
        "ماي",
        "دۇ"
      ],
      [
        "چو",
        "ڭ"
      ],
      [
        "ئۆ",
        "ي"
      ],
      [
        "چ",
        "ۇ"
      ],
      [
        "ھ",
        "اي"
      ],
      [
        "قا",
        "لدى"
      ],
      [
        "قار",
        "ى"
      ],
      [
        "رۇ",
        "ن"
      ],
      [
        "ئۇي",
        "غۇر"
      ],
      [
        "ئ",
        "ەر"
      ],
      [
        "ل",
        "ۈك"
      ],
      [
        "قى",
        "زى"
      ],
      [
        "نې",
        "مى"
      ],
      [
        "ك",
        "و"
      ],
      [
        "ئە",
        "ڭ"
      ],
      [
        "م",
        "نى"
      ],
      [
        "رى",
        "پ"
      ],
      [
        "كې",
        "رەك"
      ],
      [
        "ل",
        "غان"
      ],
      [
        "كەت",
        "تى"
      ],
      [
        "لار",
        "غا"
      ],
      [
        "ق",
        "ەت"
      ],
      [
        "ر",
        "اي"
      ],
      [
        "ئۇ",
        "نى"
      ],
      [
        "تە",
        "ك"
      ],
      [
        "ش",
        "نى"
      ],
      [
        "ئا",
        "ڭ"
      ],
      [
        "كى",
        "م"
      ],
      [
        "ۋا",
        "تقان"
      ],
      [
        "ئى",
        "كەن"
      ],
      [
        "دۇ",
        "ن"
      ],
      [
        "ئە",
        "س"
      ],
      [
        "سا",
        "ڭ"
      ],
      [
        "بى",
        "رى"
      ],
      [
        "سا",
        "ق"
      ],
      [
        "چ",
        "ې"
      ],
      [
        "مى",
        "سى"
      ],
      [
        "قو",
        "يۇ"
      ],
      [
        "كۆ",
        "ڭ"
      ],
      [
        "ار",
        "ى"
      ],
      [
        "ئى",
        "س"
      ],
      [
        "ب",
        "اي"
      ],
      [
        "مى",
        "غان"
      ],
      [
        "تۇرۇ",
        "پ"
      ],
      [
        "ۋ",
        "ۇ"
      ],
      [
        "كې",
        "تى"
      ],
      [
        "كى",
        "ر"
      ],
      [
        "ۈ",
        "ل"
      ],
      [
        "تۇ",
        "ن"
      ],
      [
        "تە",
        "پ"
      ],
      [
        "ئۆ",
        "ل"
      ],
      [
        "سى",
        "م"
      ],
      [
        "ل",
        "ەن"
      ],
      [
        "ق",
        "تى"
      ],
      [
        "ئې",
        "غى"
      ],
      [
        "لەر",
        "نىڭ"
      ],
      [
        "ق",
        "ول"
      ],
      [
        "تو",
        "غ"
      ],
      [
        "با",
        "لا"
      ],
      [
        "دۇن",
        "يا"
      ],
      [
        "گ",
        "ەر"
      ],
      [
        "زى",
        "ر"
      ],
      [
        "خى",
        "ل"
      ],
      [
        "لىنى",
        "پ"
      ],
      [
        "تى",
        "كى"
      ],
      [
        "يى",
        "ل"
      ],
      [
        "بول",
        "دى"
      ],
      [
        "يې",
        "زى"
      ],
      [
        "د",
        "دى"
      ],
      [
        "ئو",
        "خ"
      ],
      [
        "چا",
        "ق"
      ],
      [
        "دۇ",
        "ق"
      ],
      [
        "ۈ",
        "ڭ"
      ],
      [
        "دى",
        "م"
      ],
      [
        "تۇ",
        "رى"
      ],
      [
        "غى",
        "نى"
      ],
      [
        "لى",
        "ش"
      ],
      [
        "ھې",
        "چ"
      ],
      [
        "ئو",
        "ر"
      ],
      [
        "ج",
        "ان"
      ],
      [
        "تى",
        "ل"
      ],
      [
        "تا",
        "ش"
      ],
      [
        "ھا",
        "زىر"
      ],
      [
        "گ",
        "ۈن"
      ],
      [
        "تى",
        "نى"
      ],
      [
        "كە",
        "لدى"
      ],
      [
        "گى",
        "نى"
      ],
      [
        "گۈ",
        "ل"
      ],
      [
        "ي",
        "ان"
      ],
      [
        "قى",
        "رى"
      ],
      [
        "كۈ",
        "ل"
      ],
      [
        "كى",
        "چى"
      ],
      [
        "لە",
        "ش"
      ],
      [
        "قارا",
        "پ"
      ],
      [
        "قى",
        "لا"
      ],
      [
        "نۇ",
        "ر"
      ],
      [
        "ي",
        "ۈر"
      ],
      [
        "ئار",
        "ى"
      ],
      [
        "غۇ",
        "چى"
      ],
      [
        "تې",
        "خى"
      ],
      [
        "قى",
        "ت"
      ],
      [
        "ئان",
        "ا"
      ],
      [
        "ھاي",
        "ا"
      ],
      [
        "ما",
        "ل"
      ],
      [
        "ڭ",
        "لار"
      ],
      [
        "تە",
        "ڭ"
      ],
      [
        "ن",
        "چى"
      ],
      [
        "تا",
        "پ"
      ],
      [
        "لىقى",
        "نى"
      ],
      [
        "تى",
        "ش"
      ],
      [
        "مى",
        "نى"
      ],
      [
        "دا",
        "ش"
      ],
      [
        "ۋا",
        "ل"
      ],
      [
        "مې",
        "نىڭ"
      ],
      [
        "ۈ",
        "گۈن"
      ],
      [
        "رى",
        "ش"
      ],
      [
        "ئو",
        "ت"
      ],
      [
        "ۋا",
        "قىت"
      ],
      [
        "ماڭ",
        "ا"
      ],
      [
        "ھ",
        "ەت"
      ],
      [
        "ە",
        "پ"
      ],
      [
        "دى",
        "كەن"
      ],
      [
        "ئى",
        "ل"
      ],
      [
        "يې",
        "ڭى"
      ],
      [
        "پ",
        "ۈ"
      ],
      [
        "لى",
        "غان"
      ],
      [
        "يا",
        "ز"
      ],
      [
        "ئې",
        "ي"
      ],
      [
        "ئە",
        "ل"
      ],
      [
        "قۇ",
        "م"
      ],
      [
        "ئا",
        "چ"
      ],
      [
        "قو",
        "ر"
      ],
      [
        "تا",
        "ل"
      ],
      [
        "ئ",
        "ول"
      ],
      [
        "د",
        "ان"
      ],
      [
        "و",
        "ر"
      ],
      [
        "كۈ",
        "چ"
      ],
      [
        "خا",
        "نى"
      ],
      [
        "ن",
        "ەر"
      ],
      [
        "دى",
        "سى"
      ],
      [
        "غ",
        "ە"
      ],
      [
        "رۇ",
        "ق"
      ],
      [
        "ئا",
        "ت"
      ],
      [
        "سى",
        "ر"
      ],
      [
        "سى",
        "مۇ"
      ],
      [
        "كەل",
        "گەن"
      ],
      [
        "م",
        "نىڭ"
      ],
      [
        "شى",
        "پ"
      ],
      [
        "را",
        "پ"
      ],
      [
        "يې",
        "قى"
      ],
      [
        "تو",
        "ر"
      ],
      [
        "بە",
        "ل"
      ],
      [
        "ج",
        "ۇ"
      ],
      [
        "يا",
        "مان"
      ],
      [
        "چا",
        "غ"
      ],
      [
        "س",
        "ۈ"
      ],
      [
        "كۈ",
        "نى"
      ],
      [
        "گۈ",
        "ز"
      ],
      [
        "مەك",
        "تەپ"
      ],
      [
        "گ",
        "ې"
      ],
      [
        "نا",
        "ھ"
      ],
      [
        "ب",
        "ۆ"
      ],
      [
        "ئى",
        "ز"
      ],
      [
        "تۇ",
        "ق"
      ],
      [
        "قىل",
        "غان"
      ],
      [
        "يۈ",
        "ز"
      ],
      [
        "س",
        "ەت"
      ],
      [
        "لا",
        "ق"
      ],
      [
        "با",
        "غ"
      ],
      [
        "ھە",
        "رى"
      ],
      [
        "يې",
        "رى"
      ],
      [
        "ايى",
        "تى"
      ],
      [
        "قې",
        "تىم"
      ],
      [
        "خ",
        "ە"
      ],
      [
        "گ",
        "ا"
      ],
      [
        "ئې",
        "لىپ"
      ],
      [
        "قىلى",
        "ش"
      ],
      [
        "ب",
        "ۈگۈن"
      ],
      [
        "ت",
        "ۈن"
      ],
      [
        "سى",
        "يە"
      ],
      [
        "باش",
        "قى"
      ],
      [
        "لەر",
        "گە"
      ],
      [
        "يەر",
        "دە"
      ],
      [
        "پ",
        "ەر"
      ],
      [
        "ئۇ",
        "چ"
      ],
      [
        "يا",
        "ق"
      ],
      [
        "ئار",
        "قى"
      ],
      [
        "ئا",
        "ق"
      ],
      [
        "ئا",
        "نى"
      ],
      [
        "لا",
        "م"
      ],
      [
        "ئا",
        "تا"
      ],
      [
        "ئا",
        "خى"
      ],
      [
        "ئى",
        "شى"
      ],
      [
        "بول",
        "ا"
      ],
      [
        "پ",
        "ارا"
      ],
      [
        "ۋ",
        "اي"
      ],
      [
        "سا",
        "م"
      ],
      [
        "تې",
        "ز"
      ],
      [
        "ڭ",
        "نى"
      ],
      [
        "قى",
        "نى"
      ],
      [
        "قى",
        "لدى"
      ],
      [
        "ھا",
        "ل"
      ],
      [
        "قال",
        "غان"
      ],
      [
        "ك",
        "ۇ"
      ],
      [
        "ئا",
        "لى"
      ],
      [
        "ئو",
        "غ"
      ],
      [
        "با",
        "ق"
      ],
      [
        "ھ",
        "ۇ"
      ],
      [
        "غۇ",
        "ن"
      ],
      [
        "كۈ",
        "ز"
      ],
      [
        "قىلى",
        "دۇ"
      ],
      [
        "لې",
        "كىن"
      ],
      [
        "كىچى",
        "ك"
      ],
      [
        "ۋ",
        "ان"
      ],
      [
        "تۇ",
        "را"
      ],
      [
        "بە",
        "زى"
      ],
      [
        "چى",
        "راي"
      ],
      [
        "چ",
        "ۆ"
      ],
      [
        "مۇ",
        "ھى"
      ],
      [
        "شا",
        "ل"
      ],
      [
        "ئەم",
        "دى"
      ],
      [
        "م",
        "و"
      ],
      [
        "تى",
        "لى"
      ],
      [
        "ھ",
        "ار"
      ],
      [
        "د",
        "ۈر"
      ],
      [
        "ھە",
        "قى"
      ],
      [
        "مەي",
        "دۇ"
      ],
      [
        "پ",
        "و"
      ],
      [
        "چ",
        "ان"
      ],
      [
        "چ",
        "ەك"
      ],
      [
        "ئا",
        "ۋا"
      ],
      [
        "تا",
        "غ"
      ],
      [
        "غۇ",
        "ل"
      ],
      [
        "ر",
        "ان"
      ],
      [
        "ئا",
        "ز"
      ],
      [
        "شا",
        "ش"
      ],
      [
        "كۆر",
        "ۈپ"
      ],
      [
        "لىشى",
        "پ"
      ],
      [
        "بى",
        "لىم"
      ],
      [
        "مى",
        "ڭ"
      ],
      [
        "مۇ",
        "شۇ"
      ],
      [
        "باش",
        "قا"
      ],
      [
        "ق",
        "قى"
      ],
      [
        "ھ",
        "ۆ"
      ],
      [
        "رى",
        "نى"
      ],
      [
        "دە",
        "ي"
      ],
      [
        "يا",
        "ت"
      ],
      [
        "قۇ",
        "ر"
      ],
      [
        "ئا",
        "س"
      ],
      [
        "سى",
        "ڭىز"
      ],
      [
        "قا",
        "ت"
      ],
      [
        "ب",
        "ەت"
      ],
      [
        "ف",
        "ى"
      ],
      [
        "ك",
        "ار"
      ],
      [
        "ئۇ",
        "لارنىڭ"
      ],
      [
        "كە",
        "چ"
      ],
      [
        "لىرى",
        "نىڭ"
      ],
      [
        "كەت",
        "كەن"
      ],
      [
        "م",
        "غا"
      ],
      [
        "پ",
        "اي"
      ],
      [
        "يا",
        "كى"
      ],
      [
        "قا",
        "تتى"
      ],
      [
        "ئە",
        "تى"
      ],
      [
        "ئو",
        "ن"
      ],
      [
        "ئې",
        "تى"
      ],
      [
        "ئې",
        "چى"
      ],
      [
        "قې",
        "رى"
      ],
      [
        "ناھ",
        "ايىتى"
      ],
      [
        "ئى",
        "م"
      ],
      [
        "بول",
        "سۇن"
      ],
      [
        "يى",
        "تى"
      ],
      [
        "ۋ",
        "ەر"
      ],
      [
        "سى",
        "ل"
      ],
      [
        "سە",
        "ل"
      ],
      [
        "مىز",
        "نىڭ"
      ],
      [
        "ئەم",
        "ما"
      ],
      [
        "پ",
        "ې"
      ],
      [
        "كې",
        "لىپ"
      ],
      [
        "ھەم",
        "مە"
      ],
      [
        "تەر",
        "ەپ"
      ],
      [
        "لىكى",
        "نى"
      ],
      [
        "سى",
        "دا"
      ],
      [
        "كى",
        "تا"
      ],
      [
        "ئا",
        "پ"
      ],
      [
        "كې",
        "لى"
      ],
      [
        "ر",
        "ەت"
      ],
      [
        "چىقى",
        "پ"
      ],
      [
        "س",
        "ەك"
      ],
      [
        "ھ",
        "و"
      ],
      [
        "ئا",
        "ش"
      ],
      [
        "سى",
        "نىڭ"
      ],
      [
        "ۋا",
        "تىدۇ"
      ],
      [
        "نە",
        "چ"
      ],
      [
        "لاي",
        "دۇ"
      ],
      [
        "خ",
        "تى"
      ],
      [
        "اي",
        "دۇ"
      ],
      [
        "ھە",
        "ي"
      ],
      [
        "ئۇنىڭ",
        "غا"
      ],
      [
        "ي",
        "نى"
      ],
      [
        "رى",
        "دۇ"
      ],
      [
        "يا",
        "سى"
      ],
      [
        "زى",
        "نى"
      ],
      [
        "خۇ",
        "شال"
      ],
      [
        "چىراي",
        "لىق"
      ],
      [
        "خ",
        "ەت"
      ],
      [
        "كى",
        "يى"
      ],
      [
        "مى",
        "گەن"
      ],
      [
        "لە",
        "م"
      ],
      [
        "توغ",
        "را"
      ],
      [
        "چ",
        "ۈ"
      ],
      [
        "دۇ",
        "م"
      ],
      [
        "خ",
        "ې"
      ],
      [
        "ۋا",
        "قتى"
      ],
      [
        "كىشى",
        "لەر"
      ],
      [
        "كىتا",
        "ب"
      ],
      [
        "ت",
        "قۇ"
      ],
      [
        "بى",
        "لى"
      ],
      [
        "غا",
        "چ"
      ],
      [
        "ئو",
        "رۇن"
      ],
      [
        "گۈز",
        "ەل"
      ],
      [
        "چى",
        "لىك"
      ],
      [
        "مې",
        "ھ"
      ],
      [
        "پە",
        "ي"
      ],
      [
        "ا",
        "ق"
      ],
      [
        "ر",
        "ې"
      ],
      [
        "تى",
        "مەن"
      ],
      [
        "بې",
        "شى"
      ],
      [
        "پا",
        "دى"
      ],
      [
        "كۆر",
        "ۈن"
      ],
      [
        "دو",
        "ست"
      ],
      [
        "ئىچى",
        "دە"
      ],
      [
        "يېقى",
        "ن"
      ],
      [
        "د",
        "ار"
      ],
      [
        "ئا",
        "سا"
      ],
      [
        "غان",
        "دا"
      ],
      [
        "يى",
        "گى"
      ],
      [
        "مې",
        "نى"
      ],
      [
        "ئىن",
        "سان"
      ],
      [
        "نەچ",
        "چە"
      ],
      [
        "گ",
        "ۈر"
      ],
      [
        "گى",
        "ز"
      ],
      [
        "لىنى",
        "دۇ"
      ],
      [
        "پۇ",
        "ل"
      ],
      [
        "نۇر",
        "غۇن"
      ],
      [
        "ئا",
        "لا"
      ],
      [
        "لار",
        "دا"
      ],
      [
        "ئۈ",
        "ستى"
      ],
      [
        "ئوخ",
        "شاش"
      ],
      [
        "ت",
        "ول"
      ],
      [
        "گ",
        "ۇ"
      ],
      [
        "لى",
        "سى"
      ],
      [
        "ئۇ",
        "نداق"
      ],
      [
        "لىق",
        "قا"
      ],
      [
        "مى",
        "ل"
      ],
      [
        "كۈ",
        "چى"
      ],
      [
        "ھې",
        "س"
      ],
      [
        "م",
        "ەر"
      ],
      [
        "ئىش",
        "لى"
      ],
      [
        "ت",
        "ەت"
      ],
      [
        "قى",
        "س"
      ],
      [
        "سى",
        "پ"
      ],
      [
        "يى",
        "غى"
      ],
      [
        "سە",
        "ڭ"
      ],
      [
        "قاتتى",
        "ق"
      ],
      [
        "م",
        "لىق"
      ],
      [
        "ئا",
        "يال"
      ],
      [
        "سى",
        "لەر"
      ],
      [
        "تۇ",
        "پ"
      ],
      [
        "يا",
        "م"
      ],
      [
        "بۇ",
        "نىڭ"
      ],
      [
        "ئې",
        "رى"
      ],
      [
        "يۇ",
        "قىرى"
      ],
      [
        "قا",
        "تار"
      ],
      [
        "يې",
        "نى"
      ],
      [
        "غى",
        "لى"
      ],
      [
        "مىز",
        "نى"
      ],
      [
        "ئۈ",
        "ز"
      ],
      [
        "بىز",
        "نىڭ"
      ],
      [
        "مى",
        "سا"
      ],
      [
        "ئۇ",
        "چۇ"
      ],
      [
        "قا",
        "پ"
      ],
      [
        "بول",
        "مايدۇ"
      ],
      [
        "يى",
        "راق"
      ],
      [
        "ئۆزى",
        "نى"
      ],
      [
        "كۆڭ",
        "ۈل"
      ],
      [
        "تى",
        "رى"
      ],
      [
        "ئا",
        "دە"
      ],
      [
        "لار",
        "دىن"
      ],
      [
        "مە",
        "سى"
      ],
      [
        "شۇ",
        "نىڭ"
      ],
      [
        "ھەرى",
        "كەت"
      ],
      [
        "ۋ",
        "ەن"
      ],
      [
        "بېرى",
        "پ"
      ],
      [
        "مۇھى",
        "م"
      ],
      [
        "مۇ",
        "م"
      ],
      [
        "ئە",
        "قىل"
      ],
      [
        "يى",
        "غ"
      ],
      [
        "گى",
        "لى"
      ],
      [
        "نېمى",
        "شقا"
      ],
      [
        "س",
        "ۈر"
      ],
      [
        "كى",
        "نى"
      ],
      [
        "چى",
        "لىق"
      ],
      [
        "ھەم",
        "مى"
      ],
      [
        "ئۇ",
        "زۇ"
      ],
      [
        "دا",
        "دا"
      ],
      [
        "ئە",
        "مە"
      ],
      [
        "كۆ",
        "تۈر"
      ],
      [
        "پۇ",
        "ر"
      ],
      [
        "ت",
        "ايى"
      ],
      [
        "و",
        "ن"
      ],
      [
        "ئۆ",
        "گىنى"
      ],
      [
        "تە",
        "ي"
      ],
      [
        "بۇ",
        "رۇن"
      ],
      [
        "سۇ",
        "ل"
      ],
      [
        "ڭىز",
        "نى"
      ],
      [
        "ھې",
        "سا"
      ],
      [
        "ئاي",
        "رى"
      ],
      [
        "شە",
        "ھەر"
      ],
      [
        "پۈ",
        "تۈن"
      ],
      [
        "ئۇزۇ",
        "ن"
      ],
      [
        "ئۆ",
        "س"
      ],
      [
        "لۇ",
        "غ"
      ],
      [
        "بە",
        "ش"
      ],
      [
        "ئار",
        "ا"
      ],
      [
        "خو",
        "تۇن"
      ],
      [
        "ش",
        "ەك"
      ],
      [
        "ن",
        "و"
      ],
      [
        "ئا",
        "غ"
      ],
      [
        "ئە",
        "خ"
      ],
      [
        "ئارقى",
        "لىق"
      ],
      [
        "خ",
        "ان"
      ],
      [
        "ش",
        "قان"
      ],
      [
        "م",
        "ۈر"
      ],
      [
        "نى",
        "دى"
      ],
      [
        "دە",
        "پتۇ"
      ],
      [
        "ئە",
        "گەر"
      ],
      [
        "تو",
        "ي"
      ],
      [
        "قو",
        "لى"
      ],
      [
        "تتى",
        "ن"
      ],
      [
        "تار",
        "ى"
      ],
      [
        "لەي",
        "دۇ"
      ],
      [
        "خ",
        "ت"
      ],
      [
        "خ",
        "ەل"
      ],
      [
        "ە",
        "خ"
      ],
      [
        "ئە",
        "ھ"
      ],
      [
        "تو",
        "نۇ"
      ],
      [
        "ئۆزى",
        "نىڭ"
      ],
      [
        "ھە",
        "ل"
      ],
      [
        "شۇ",
        "ڭ"
      ],
      [
        "تې",
        "پى"
      ],
      [
        "باش",
        "لىدى"
      ],
      [
        "رە",
        "ڭ"
      ],
      [
        "تۈ",
        "ز"
      ],
      [
        "بۇ",
        "نداق"
      ],
      [
        "رۇ",
        "پ"
      ],
      [
        "پا",
        "ت"
      ],
      [
        "يەت",
        "تە"
      ],
      [
        "تېخى",
        "مۇ"
      ],
      [
        "مۇم",
        "كىن"
      ],
      [
        "س",
        "اي"
      ],
      [
        "م",
        "دۇ"
      ],
      [
        "پ",
        "ار"
      ],
      [
        "مۇ",
        "شۇنداق"
      ],
      [
        "سە",
        "م"
      ],
      [
        "تۇر",
        "غان"
      ],
      [
        "ئېغى",
        "ر"
      ],
      [
        "ل",
        "ماي"
      ],
      [
        "پ",
        "ەن"
      ],
      [
        "سى",
        "دىن"
      ],
      [
        "قۇ",
        "ن"
      ],
      [
        "قان",
        "چە"
      ],
      [
        "يام",
        "غۇر"
      ],
      [
        "نى",
        "نى"
      ],
      [
        "سى",
        "غا"
      ],
      [
        "مە",
        "ش"
      ],
      [
        "مە",
        "ڭ"
      ],
      [
        "كە",
        "م"
      ],
      [
        "مان",
        "ا"
      ],
      [
        "دەر",
        "ەخ"
      ],
      [
        "تۆ",
        "ت"
      ],
      [
        "ئ",
        "ەن"
      ],
      [
        "چ",
        "ار"
      ],
      [
        "ئا",
        "ئى"
      ],
      [
        "ئى",
        "گە"
      ],
      [
        "ئۇ",
        "لۇغ"
      ],
      [
        "تې",
        "رى"
      ],
      [
        "دې",
        "دى"
      ],
      [
        "بو",
        "يى"
      ],
      [
        "يە",
        "سى"
      ],
      [
        "يەر",
        "گە"
      ],
      [
        "چاغ",
        "دا"
      ],
      [
        "ھېسا",
        "ب"
      ],
      [
        "ت",
        "لىق"
      ],
      [
        "د",
        "ۈش"
      ],
      [
        "ن",
        "چە"
      ],
      [
        "دى",
        "ر"
      ],
      [
        "ئا",
        "تى"
      ],
      [
        "ت",
        "ەن"
      ],
      [
        "ش",
        "ې"
      ],
      [
        "ش",
        "تى"
      ],
      [
        "ۋا",
        "ب"
      ],
      [
        "بۇ",
        "نى"
      ],
      [
        "سە",
        "ۋە"
      ],
      [
        "ئىش",
        "نى"
      ],
      [
        "سۆ",
        "ي"
      ],
      [
        "قاي",
        "سى"
      ],
      [
        "تۇرا",
        "تتى"
      ],
      [
        "ئ",
        "ۈن"
      ],
      [
        "د",
        "ۆ"
      ],
      [
        "ز",
        "ە"
      ],
      [
        "مى",
        "ن"
      ],
      [
        "دا",
        "ۋا"
      ],
      [
        "بو",
        "پتۇ"
      ],
      [
        "بولۇ",
        "شى"
      ],
      [
        "لىنى",
        "ش"
      ],
      [
        "ئۆز",
        "ۈم"
      ],
      [
        "پە",
        "قەت"
      ],
      [
        "ماق",
        "چى"
      ],
      [
        "يار",
        "ى"
      ],
      [
        "يېرى",
        "م"
      ],
      [
        "سى",
        "ق"
      ],
      [
        "ئى",
        "ي"
      ],
      [
        "ئۇ",
        "س"
      ],
      [
        "زى",
        "م"
      ],
      [
        "ددى",
        "ي"
      ],
      [
        "يا",
        "غ"
      ],
      [
        "ۋا",
        "ق"
      ],
      [
        "تۇر",
        "مۇ"
      ],
      [
        "لې",
        "ك"
      ],
      [
        "ھەقى",
        "قەت"
      ],
      [
        "ق",
        "ەر"
      ],
      [
        "گ",
        "ۆ"
      ],
      [
        "قى",
        "ي"
      ],
      [
        "ئا",
        "پا"
      ],
      [
        "تۇ",
        "ز"
      ],
      [
        "لا",
        "ھ"
      ],
      [
        "گەن",
        "دە"
      ],
      [
        "تو",
        "پ"
      ],
      [
        "ئۈ",
        "مى"
      ],
      [
        "ھەم",
        "مىسى"
      ],
      [
        "ش",
        "ەن"
      ],
      [
        "ھ",
        "ان"
      ],
      [
        "قى",
        "ر"
      ],
      [
        "كۆ",
        "زى"
      ],
      [
        "قۇ",
        "ياش"
      ],
      [
        "يې",
        "شى"
      ],
      [
        "خى",
        "ز"
      ],
      [
        "ئۈمى",
        "د"
      ],
      [
        "ت",
        "ان"
      ],
      [
        "غ",
        "اي"
      ],
      [
        "مۇ",
        "نا"
      ],
      [
        "ئۆ",
        "ر"
      ],
      [
        "يە",
        "نى"
      ],
      [
        "سې",
        "رى"
      ],
      [
        "چۈش",
        "ەن"
      ],
      [
        "قويۇ",
        "پ"
      ],
      [
        "قاتار",
        "لىق"
      ],
      [
        "ك",
        "ان"
      ],
      [
        "لى",
        "مۇ"
      ],
      [
        "قى",
        "م"
      ],
      [
        "ئا",
        "شۇ"
      ],
      [
        "كې",
        "چى"
      ],
      [
        "سو",
        "رى"
      ],
      [
        "قاي",
        "تىپ"
      ],
      [
        "لىدى",
        "كەن"
      ],
      [
        "بالى",
        "لار"
      ],
      [
        "ئاخى",
        "ر"
      ],
      [
        "ز",
        "ان"
      ],
      [
        "لى",
        "دىغان"
      ],
      [
        "ئۇ",
        "ن"
      ],
      [
        "كې",
        "لىدۇ"
      ],
      [
        "لۇ",
        "پ"
      ],
      [
        "ئادەم",
        "لەر"
      ],
      [
        "ئۆز",
        "ۈڭ"
      ],
      [
        "تايى",
        "ن"
      ],
      [
        "تى",
        "مىز"
      ],
      [
        "تا",
        "ق"
      ],
      [
        "بۇ",
        "ل"
      ],
      [
        "تې",
        "لې"
      ],
      [
        "ھا",
        "ۋا"
      ],
      [
        "رە",
        "پ"
      ],
      [
        "رە",
        "ھ"
      ],
      [
        "ئال",
        "لاھ"
      ],
      [
        "ئۆز",
        "گى"
      ],
      [
        "ز",
        "ار"
      ],
      [
        "ي",
        "ۆ"
      ],
      [
        "پ",
        "تى"
      ],
      [
        "دى",
        "نى"
      ],
      [
        "دى",
        "لا"
      ],
      [
        "ئى",
        "چ"
      ],
      [
        "بول",
        "ماس"
      ],
      [
        "تە",
        "بى"
      ],
      [
        "ئادەم",
        "نىڭ"
      ],
      [
        "سې",
        "نىڭ"
      ],
      [
        "ئوقۇ",
        "غۇچى"
      ],
      [
        "ز",
        "ې"
      ],
      [
        "ي",
        "دۇ"
      ],
      [
        "ڭ",
        "غۇ"
      ],
      [
        "نى",
        "يە"
      ],
      [
        "كى",
        "رىپ"
      ],
      [
        "ئى",
        "ر"
      ],
      [
        "مى",
        "ي"
      ],
      [
        "ئو",
        "غۇل"
      ],
      [
        "ۋا",
        "لدى"
      ],
      [
        "لەر",
        "دە"
      ],
      [
        "تې",
        "ر"
      ],
      [
        "ماق",
        "تا"
      ],
      [
        "لان",
        "غان"
      ],
      [
        "چىق",
        "قان"
      ],
      [
        "مىدى",
        "م"
      ],
      [
        "ھاي",
        "ۋان"
      ],
      [
        "ج",
        "ايى"
      ],
      [
        "م",
        "ۈش"
      ],
      [
        "ي",
        "لى"
      ],
      [
        "تى",
        "ر"
      ],
      [
        "زى",
        "رى"
      ],
      [
        "ئۆ",
        "يى"
      ],
      [
        "تا",
        "ماق"
      ],
      [
        "تە",
        "س"
      ],
      [
        "لىرى",
        "دىن"
      ],
      [
        "قو",
        "غ"
      ],
      [
        "نە",
        "تى"
      ],
      [
        "چو",
        "قۇم"
      ],
      [
        "جا",
        "ۋاب"
      ],
      [
        "شۇڭ",
        "ا"
      ],
      [
        "ج",
        "ې"
      ],
      [
        "ج",
        "رى"
      ],
      [
        "دى",
        "ق"
      ],
      [
        "ئۇ",
        "خ"
      ],
      [
        "بول",
        "سىمۇ"
      ],
      [
        "غۇ",
        "چە"
      ],
      [
        "نۇ",
        "رى"
      ],
      [
        "ۈ",
        "پتۇ"
      ],
      [
        "كى",
        "ل"
      ],
      [
        "ئى",
        "ت"
      ],
      [
        "سا",
        "ل"
      ],
      [
        "يۈ",
        "گۈر"
      ],
      [
        "ئۆت",
        "كۈز"
      ],
      [
        "تۇرى",
        "دۇ"
      ],
      [
        "خ",
        "تا"
      ],
      [
        "ئە",
        "جە"
      ],
      [
        "بىر",
        "اق"
      ],
      [
        "قۇ",
        "رۇ"
      ],
      [
        "ئور",
        "نى"
      ],
      [
        "ھال",
        "دا"
      ],
      [
        "ئادە",
        "ت"
      ],
      [
        "ز",
        "ەر"
      ],
      [
        "ش",
        "ەر"
      ],
      [
        "رى",
        "پى"
      ],
      [
        "سا",
        "پ"
      ]
    ]
  }
}